custom_quantize_layers:
    /model.1/act/Mul_output_0: float16
    /model.2/cv1/conv/Conv_output_0: float16
    /model.2/cv1/act/Mul_output_0: float16
    /model.2/Split_output_0: float16
    /model.2/Concat_output_0: float16
    /model.2/Split_output_1: float16
    /model.2/m.0/cv1/conv/Conv_output_0: float16
    /model.2/m.0/Add_output_0: float16
    /model.2/m.0/cv1/act/Mul_output_0: float16
    /model.2/m.0/cv2/conv/Conv_output_0: float16
    /model.2/m.0/cv2/act/Mul_output_0: float16
    /model.2/cv2/conv/Conv_output_0: float16
    /model.2/cv2/act/Mul_output_0: float16
    /model.3/conv/Conv_output_0: float16
    /model.3/act/Mul_output_0: float16
    /model.4/cv1/conv/Conv_output_0: float16
    /model.4/cv1/act/Mul_output_0: float16
    /model.4/Split_output_0: float16
    /model.4/Concat_output_0: float16
    /model.4/m.1/cv2/act/Mul_output_0: float16
    /model.4/m.1/Add_output_0: float16
    /model.4/cv2/conv/Conv_output_0: float16
    /model.6/cv1/act/Mul_output_0: float16
    /model.6/Split_output_0: float16
    /model.6/Concat_output_0: float16
    /model.6/m.1/cv2/act/Mul_output_0: float16
    /model.6/m.1/Add_output_0: float16
    /model.6/cv2/conv/Conv_output_0: float16
    /model.8/cv1/act/Mul_output_0: float16
    /model.8/Split_output_0: float16
    /model.8/Concat_output_0: float16
    /model.8/m.0/cv2/act/Mul_output_0: float16
    /model.8/m.0/Add_output_0: float16
    /model.8/cv2/conv/Conv_output_0: float16
    /model.15/cv1/act/Mul_output_0: float16
    /model.15/Split_output_0: float16
    /model.15/m.0/cv2/act/Mul_output_0: float16
    /model.15/Concat_output_0: float16
    /model.15/cv2/conv/Conv_output_0: float16
    /model.18/m.0/cv2/act/Mul_output_0: float16
    /model.18/Concat_output_0: float16
    /model.21/m.0/cv2/act/Mul_output_0: float16
    /model.21/Concat_output_0: float16
    /model.22/cv4.2/cv4.2.0/act/Mul_output_0: float16
    /model.22/cv4.2/cv4.2.1/conv/Conv_output_0: float16
    /model.22/cv4.2/cv4.2.1/act/Mul_output_0: float16
    /model.22/cv4.2/cv4.2.2/Conv_output_0: float16
    /model.22/cv2.2/cv2.2.0/act/Mul_output_0: float16
    /model.22/cv2.2/cv2.2.1/conv/Conv_output_0: float16
    /model.22/cv2.2/cv2.2.1/act/Mul_output_0: float16
    /model.22/cv2.2/cv2.2.2/Conv_output_0: float16
    /model.22/cv3.2/cv3.2.1/act/Mul_output_0: float16
    /model.22/cv3.2/cv3.2.2/Conv_output_0: float16
    /model.22/cv2.1/cv2.1.1/act/Mul_output_0: float16
    /model.22/cv2.1/cv2.1.2/Conv_output_0: float16
    /model.22/cv3.1/cv3.1.0/act/Mul_output_0: float16
    /model.22/cv3.1/cv3.1.1/conv/Conv_output_0: float16
    /model.22/cv3.1/cv3.1.1/act/Mul_output_0: float16
    /model.22/cv3.1/cv3.1.2/Conv_output_0: float16
    output1: float16
    /model.22/cv2.0/cv2.0.1/act/Mul_output_0: float16
    /model.22/cv2.0/cv2.0.2/Conv_output_0: float16
    /model.22/cv3.0/cv3.0.1/act/Mul_output_0: float16
    /model.22/cv3.0/cv3.0.2/Conv_output_0: float16
    /model.22/dfl/Softmax_output_0: float16
    /model.22/dfl/Transpose_1_output_0: float16
    /model.22/dfl/conv/Conv_output_0: float16
    /model.22/Concat_5_output_0_shape4_/model.22/Mul_2_before_conv: float16
    /model.22/Concat_5_output_0_shape4_/model.22/Mul_2: float16
    /model.22/Mul_2_output_0: float16
    /model.22/Sigmoid_output_0: float16
    /model.22/Concat_6_swap_concat_reshape_i1_out: float16
    output0_shape4: float16
    output0_int8: float16
    output0: float16
quantize_parameters:
    images:
        qtype: asymmetric_quantized
        qmethod: layer
        dtype: float32
        min:
        -   0.0
        max:
        -   1.0
        scale: []
        zero_point: []
        ori_min:
        -   0.0
        ori_max:
        -   1.0
    /model.0/conv/Conv_output_0:
        qtype: asymmetric_quantized
        qmethod: layer
        dtype: int8
        min:
        -   -48.31456756591797
        max:
        -   38.94666290283203
        scale:
        -   0.34220090379901963
        zero_point:
        -   13
        ori_min:
        -   -48.31456756591797
        ori_max:
        -   38.94666290283203
    /model.0/act/Mul_output_0:
        qtype: asymmetric_quantized
        qmethod: layer
        dtype: int8
        min:
        -   -0.27846458554267883
        max:
        -   38.94666290283203
        scale:
        -   0.15382402936617534
        zero_point:
        -   -126
        ori_min:
        -   -0.27846458554267883
        ori_max:
        -   38.94666290283203
    /model.1/conv/Conv_output_0:
        qtype: asymmetric_quantized
        qmethod: layer
        dtype: int8
        min:
        -   -118.9297103881836
        max:
        -   107.8508529663086
        scale:
        -   0.889335542566636
        zero_point:
        -   6
        ori_min:
        -   -118.9297103881836
        ori_max:
        -   107.8508529663086
    /model.1/act/Mul_output_0:
        qtype: asymmetric_quantized
        qmethod: layer
        dtype: int8
        min:
        -   -0.27846458554267883
        max:
        -   107.8508529663086
        scale:
        -   0.4240365394190246
        zero_point:
        -   -127
        ori_min:
        -   -0.27846458554267883
        ori_max:
        -   107.8508529663086
    /model.2/cv1/conv/Conv_output_0:
        qtype: asymmetric_quantized
        qmethod: layer
        dtype: int8
        min:
        -   -71.3794174194336
        max:
        -   51.560115814208984
        scale:
        -   0.4821158166025199
        zero_point:
        -   20
        ori_min:
        -   -71.3794174194336
        ori_max:
        -   51.560115814208984
    /model.2/cv1/act/Mul_output_0:
        qtype: asymmetric_quantized
        qmethod: layer
        dtype: int8
        min:
        -   -0.27846455574035645
        max:
        -   51.560115814208984
        scale:
        -   0.20328855047038957
        zero_point:
        -   -127
        ori_min:
        -   -0.27846455574035645
        ori_max:
        -   51.560115814208984
    /model.2/Split_output_0:
        qtype: asymmetric_quantized
        qmethod: layer
        dtype: int8
        min:
        -   -0.27846455574035645
        max:
        -   51.560115814208984
        scale:
        -   0.20328855047038957
        zero_point:
        -   -127
        ori_min:
        -   -0.27846455574035645
        ori_max:
        -   51.560115814208984
    /model.2/Split_output_1:
        qtype: asymmetric_quantized
        qmethod: layer
        dtype: int8
        min:
        -   -0.27846455574035645
        max:
        -   22.811691284179688
        scale:
        -   0.09054963074478449
        zero_point:
        -   -125
        ori_min:
        -   -0.27846455574035645
        ori_max:
        -   22.811691284179688
    /model.2/m.0/cv1/conv/Conv_output_0:
        qtype: asymmetric_quantized
        qmethod: layer
        dtype: int8
        min:
        -   -29.473464965820312
        max:
        -   21.93813133239746
        scale:
        -   0.2016141031302658
        zero_point:
        -   18
        ori_min:
        -   -29.473464965820312
        ori_max:
        -   21.93813133239746
    /model.2/m.0/cv1/act/Mul_output_0:
        qtype: asymmetric_quantized
        qmethod: layer
        dtype: int8
        min:
        -   -0.27846458554267883
        max:
        -   21.93813133239746
        scale:
        -   0.08712390556054957
        zero_point:
        -   -125
        ori_min:
        -   -0.27846458554267883
        ori_max:
        -   21.93813133239746
    /model.2/m.0/cv2/conv/Conv_output_0:
        qtype: asymmetric_quantized
        qmethod: layer
        dtype: int8
        min:
        -   -32.579647064208984
        max:
        -   32.532989501953125
        scale:
        -   0.25534367280847886
        zero_point:
        -   0
        ori_min:
        -   -32.579647064208984
        ori_max:
        -   32.532989501953125
    /model.2/m.0/cv2/act/Mul_output_0:
        qtype: asymmetric_quantized
        qmethod: layer
        dtype: int8
        min:
        -   -0.27846458554267883
        max:
        -   32.532989501953125
        scale:
        -   0.12867236897057177
        zero_point:
        -   -126
        ori_min:
        -   -0.27846458554267883
        ori_max:
        -   32.532989501953125
    /model.2/m.0/Add_output_0:
        qtype: asymmetric_quantized
        qmethod: layer
        dtype: int8
        min:
        -   -0.5569284558296204
        max:
        -   40.0556526184082
        scale:
        -   0.15926502382054047
        zero_point:
        -   -125
        ori_min:
        -   -0.5569284558296204
        ori_max:
        -   40.0556526184082
    /model.2/Concat_output_0:
        qtype: asymmetric_quantized
        qmethod: layer
        dtype: int8
        min:
        -   -0.5569284558296204
        max:
        -   51.560115814208984
        scale:
        -   0.20438056576485727
        zero_point:
        -   -125
        ori_min:
        -   -0.5569284558296204
        ori_max:
        -   51.560115814208984
    /model.2/cv2/conv/Conv_output_0:
        qtype: asymmetric_quantized
        qmethod: layer
        dtype: int8
        min:
        -   -24.86876106262207
        max:
        -   21.65338134765625
        scale:
        -   0.1824397741579542
        zero_point:
        -   8
        ori_min:
        -   -24.86876106262207
        ori_max:
        -   21.65338134765625
    /model.2/cv2/act/Mul_output_0:
        qtype: asymmetric_quantized
        qmethod: layer
        dtype: int8
        min:
        -   -0.27846458554267883
        max:
        -   21.65338134765625
        scale:
        -   0.0860072389537213
        zero_point:
        -   -125
        ori_min:
        -   -0.27846458554267883
        ori_max:
        -   21.65338134765625
    /model.3/conv/Conv_output_0:
        qtype: asymmetric_quantized
        qmethod: layer
        dtype: int8
        min:
        -   -13.885492324829102
        max:
        -   11.017000198364258
        scale:
        -   0.09765683342428769
        zero_point:
        -   14
        ori_min:
        -   -13.885492324829102
        ori_max:
        -   11.017000198364258
    /model.3/act/Mul_output_0:
        qtype: asymmetric_quantized
        qmethod: layer
        dtype: int8
        min:
        -   -0.27846455574035645
        max:
        -   11.01681900024414
        scale:
        -   0.04429522963131175
        zero_point:
        -   -122
        ori_min:
        -   -0.27846455574035645
        ori_max:
        -   11.01681900024414
    /model.4/cv1/conv/Conv_output_0:
        qtype: asymmetric_quantized
        qmethod: layer
        dtype: int8
        min:
        -   -13.075265884399414
        max:
        -   9.798971176147461
        scale:
        -   0.08970289043351716
        zero_point:
        -   18
        ori_min:
        -   -13.075265884399414
        ori_max:
        -   9.798971176147461
    /model.4/cv1/act/Mul_output_0:
        qtype: asymmetric_quantized
        qmethod: layer
        dtype: int8
        min:
        -   -0.27846458554267883
        max:
        -   9.798426628112793
        scale:
        -   0.03951722044570773
        zero_point:
        -   -121
        ori_min:
        -   -0.27846458554267883
        ori_max:
        -   9.798426628112793
    /model.4/Split_output_0:
        qtype: asymmetric_quantized
        qmethod: layer
        dtype: int8
        min:
        -   -0.27846455574035645
        max:
        -   9.798426628112793
        scale:
        -   0.03951722032883588
        zero_point:
        -   -121
        ori_min:
        -   -0.27846455574035645
        ori_max:
        -   9.798426628112793
    /model.4/Split_output_1:
        qtype: asymmetric_quantized
        qmethod: layer
        dtype: int8
        min:
        -   -0.27846458554267883
        max:
        -   5.18945837020874
        scale:
        -   0.0214428351205938
        zero_point:
        -   -115
        ori_min:
        -   -0.27846458554267883
        ori_max:
        -   5.18945837020874
    /model.4/m.0/cv1/conv/Conv_output_0:
        qtype: asymmetric_quantized
        qmethod: layer
        dtype: int8
        min:
        -   -9.436362266540527
        max:
        -   8.228117942810059
        scale:
        -   0.06927247140921798
        zero_point:
        -   8
        ori_min:
        -   -9.436362266540527
        ori_max:
        -   8.228117942810059
    /model.4/m.0/cv1/act/Mul_output_0:
        qtype: asymmetric_quantized
        qmethod: layer
        dtype: int8
        min:
        -   -0.27846458554267883
        max:
        -   8.225921630859375
        scale:
        -   0.03335053418196884
        zero_point:
        -   -120
        ori_min:
        -   -0.27846458554267883
        ori_max:
        -   8.225921630859375
    /model.4/m.0/cv2/conv/Conv_output_0:
        qtype: asymmetric_quantized
        qmethod: layer
        dtype: int8
        min:
        -   -8.850017547607422
        max:
        -   7.603662490844727
        scale:
        -   0.06452423544491039
        zero_point:
        -   9
        ori_min:
        -   -8.850017547607422
        ori_max:
        -   7.603662490844727
    /model.4/m.0/cv2/act/Mul_output_0:
        qtype: asymmetric_quantized
        qmethod: layer
        dtype: int8
        min:
        -   -0.27846455574035645
        max:
        -   7.599872589111328
        scale:
        -   0.030895439783732097
        zero_point:
        -   -119
        ori_min:
        -   -0.27846455574035645
        ori_max:
        -   7.599872589111328
    /model.4/m.0/Add_output_0:
        qtype: asymmetric_quantized
        qmethod: layer
        dtype: int8
        min:
        -   -0.5569266080856323
        max:
        -   9.137094497680664
        scale:
        -   0.03801576904222077
        zero_point:
        -   -113
        ori_min:
        -   -0.5569266080856323
        ori_max:
        -   9.137094497680664
    /model.4/m.1/cv1/conv/Conv_output_0:
        qtype: asymmetric_quantized
        qmethod: layer
        dtype: int8
        min:
        -   -8.824029922485352
        max:
        -   5.134967803955078
        scale:
        -   0.05474116755466835
        zero_point:
        -   33
        ori_min:
        -   -8.824029922485352
        ori_max:
        -   5.134967803955078
    /model.4/m.1/cv1/act/Mul_output_0:
        qtype: asymmetric_quantized
        qmethod: layer
        dtype: int8
        min:
        -   -0.27846458554267883
        max:
        -   5.104913711547852
        scale:
        -   0.02111128743957071
        zero_point:
        -   -115
        ori_min:
        -   -0.27846458554267883
        ori_max:
        -   5.104913711547852
    /model.4/m.1/cv2/conv/Conv_output_0:
        qtype: asymmetric_quantized
        qmethod: layer
        dtype: int8
        min:
        -   -13.237091064453125
        max:
        -   13.76573371887207
        scale:
        -   0.1058934305228439
        zero_point:
        -   -3
        ori_min:
        -   -13.237091064453125
        ori_max:
        -   13.76573371887207
    /model.4/m.1/cv2/act/Mul_output_0:
        qtype: asymmetric_quantized
        qmethod: layer
        dtype: int8
        min:
        -   -0.27846458554267883
        max:
        -   13.765719413757324
        scale:
        -   0.05507523136980393
        zero_point:
        -   -123
        ori_min:
        -   -0.27846458554267883
        ori_max:
        -   13.765719413757324
    /model.4/m.1/Add_output_0:
        qtype: asymmetric_quantized
        qmethod: layer
        dtype: int8
        min:
        -   -0.8350687026977539
        max:
        -   13.298307418823242
        scale:
        -   0.055425004398121556
        zero_point:
        -   -113
        ori_min:
        -   -0.8350687026977539
        ori_max:
        -   13.298307418823242
    /model.4/Concat_output_0:
        qtype: asymmetric_quantized
        qmethod: layer
        dtype: int8
        min:
        -   -0.8350687026977539
        max:
        -   13.298307418823242
        scale:
        -   0.055425004398121556
        zero_point:
        -   -113
        ori_min:
        -   -0.8350687026977539
        ori_max:
        -   13.298307418823242
    /model.4/cv2/conv/Conv_output_0:
        qtype: asymmetric_quantized
        qmethod: layer
        dtype: int8
        min:
        -   -9.941579818725586
        max:
        -   8.098686218261719
        scale:
        -   0.07074614132151884
        zero_point:
        -   13
        ori_min:
        -   -9.941579818725586
        ori_max:
        -   8.098686218261719
    /model.4/cv2/act/Mul_output_0:
        qtype: asymmetric_quantized
        qmethod: layer
        dtype: int8
        min:
        -   -0.27846458554267883
        max:
        -   8.09622573852539
        scale:
        -   0.032841922839482625
        zero_point:
        -   -120
        ori_min:
        -   -0.27846458554267883
        ori_max:
        -   8.09622573852539
    /model.5/conv/Conv_output_0:
        qtype: asymmetric_quantized
        qmethod: layer
        dtype: int8
        min:
        -   -11.61515998840332
        max:
        -   7.913102149963379
        scale:
        -   0.07658142015045764
        zero_point:
        -   24
        ori_min:
        -   -11.61515998840332
        ori_max:
        -   7.913102149963379
    /model.5/act/Mul_output_0:
        qtype: asymmetric_quantized
        qmethod: layer
        dtype: int8
        min:
        -   -0.27846458554267883
        max:
        -   7.910207271575928
        scale:
        -   0.03211243865536709
        zero_point:
        -   -119
        ori_min:
        -   -0.27846458554267883
        ori_max:
        -   7.910207271575928
    /model.6/cv1/conv/Conv_output_0:
        qtype: asymmetric_quantized
        qmethod: layer
        dtype: int8
        min:
        -   -9.277518272399902
        max:
        -   8.711044311523438
        scale:
        -   0.07054338268205232
        zero_point:
        -   4
        ori_min:
        -   -9.277518272399902
        ori_max:
        -   8.711044311523438
    /model.6/cv1/act/Mul_output_0:
        qtype: asymmetric_quantized
        qmethod: layer
        dtype: int8
        min:
        -   -0.27846458554267883
        max:
        -   8.709609031677246
        scale:
        -   0.03524734751850951
        zero_point:
        -   -120
        ori_min:
        -   -0.27846458554267883
        ori_max:
        -   8.709609031677246
    /model.6/Split_output_0:
        qtype: asymmetric_quantized
        qmethod: layer
        dtype: int8
        min:
        -   -0.27846458554267883
        max:
        -   8.709609031677246
        scale:
        -   0.03524734751850951
        zero_point:
        -   -120
        ori_min:
        -   -0.27846458554267883
        ori_max:
        -   8.709609031677246
    /model.6/Split_output_1:
        qtype: asymmetric_quantized
        qmethod: layer
        dtype: int8
        min:
        -   -0.27846455574035645
        max:
        -   4.1468400955200195
        scale:
        -   0.01735413588729559
        zero_point:
        -   -112
        ori_min:
        -   -0.27846455574035645
        ori_max:
        -   4.1468400955200195
    /model.6/m.0/cv1/conv/Conv_output_0:
        qtype: asymmetric_quantized
        qmethod: layer
        dtype: int8
        min:
        -   -7.5653839111328125
        max:
        -   10.424041748046875
        scale:
        -   0.07054676729090073
        zero_point:
        -   -21
        ori_min:
        -   -7.5653839111328125
        ori_max:
        -   10.424041748046875
    /model.6/m.0/cv1/act/Mul_output_0:
        qtype: asymmetric_quantized
        qmethod: layer
        dtype: int8
        min:
        -   -0.27846455574035645
        max:
        -   10.42373275756836
        scale:
        -   0.04196940122866163
        zero_point:
        -   -121
        ori_min:
        -   -0.27846455574035645
        ori_max:
        -   10.42373275756836
    /model.6/m.0/cv2/conv/Conv_output_0:
        qtype: asymmetric_quantized
        qmethod: layer
        dtype: int8
        min:
        -   -10.455185890197754
        max:
        -   6.464468955993652
        scale:
        -   0.06635158763212316
        zero_point:
        -   30
        ori_min:
        -   -10.455185890197754
        ori_max:
        -   6.464468955993652
    /model.6/m.0/cv2/act/Mul_output_0:
        qtype: asymmetric_quantized
        qmethod: layer
        dtype: int8
        min:
        -   -0.27846455574035645
        max:
        -   6.454414367675781
        scale:
        -   0.026403446758494657
        zero_point:
        -   -117
        ori_min:
        -   -0.27846455574035645
        ori_max:
        -   6.454414367675781
    /model.6/m.0/Add_output_0:
        qtype: asymmetric_quantized
        qmethod: layer
        dtype: int8
        min:
        -   -0.5569262504577637
        max:
        -   6.264092445373535
        scale:
        -   0.026749092924828622
        zero_point:
        -   -107
        ori_min:
        -   -0.5569262504577637
        ori_max:
        -   6.264092445373535
    /model.6/m.1/cv1/conv/Conv_output_0:
        qtype: asymmetric_quantized
        qmethod: layer
        dtype: int8
        min:
        -   -8.360844612121582
        max:
        -   5.9437737464904785
        scale:
        -   0.0560965425827924
        zero_point:
        -   21
        ori_min:
        -   -8.360844612121582
        ori_max:
        -   5.9437737464904785
    /model.6/m.1/cv1/act/Mul_output_0:
        qtype: asymmetric_quantized
        qmethod: layer
        dtype: int8
        min:
        -   -0.27846455574035645
        max:
        -   5.928229331970215
        scale:
        -   0.024339976030237534
        zero_point:
        -   -117
        ori_min:
        -   -0.27846455574035645
        ori_max:
        -   5.928229331970215
    /model.6/m.1/cv2/conv/Conv_output_0:
        qtype: asymmetric_quantized
        qmethod: layer
        dtype: int8
        min:
        -   -11.590738296508789
        max:
        -   11.315966606140137
        scale:
        -   0.08983021530450559
        zero_point:
        -   1
        ori_min:
        -   -11.590738296508789
        ori_max:
        -   11.315966606140137
    /model.6/m.1/cv2/act/Mul_output_0:
        qtype: asymmetric_quantized
        qmethod: layer
        dtype: int8
        min:
        -   -0.27846455574035645
        max:
        -   11.315829277038574
        scale:
        -   0.04546781895207424
        zero_point:
        -   -122
        ori_min:
        -   -0.27846455574035645
        ori_max:
        -   11.315829277038574
    /model.6/m.1/Add_output_0:
        qtype: asymmetric_quantized
        qmethod: layer
        dtype: int8
        min:
        -   -0.835174560546875
        max:
        -   11.067002296447754
        scale:
        -   0.04667520336076325
        zero_point:
        -   -110
        ori_min:
        -   -0.835174560546875
        ori_max:
        -   11.067002296447754
    /model.6/Concat_output_0:
        qtype: asymmetric_quantized
        qmethod: layer
        dtype: int8
        min:
        -   -0.835174560546875
        max:
        -   11.067002296447754
        scale:
        -   0.04667520336076325
        zero_point:
        -   -110
        ori_min:
        -   -0.835174560546875
        ori_max:
        -   11.067002296447754
    /model.6/cv2/conv/Conv_output_0:
        qtype: asymmetric_quantized
        qmethod: layer
        dtype: int8
        min:
        -   -8.588177680969238
        max:
        -   5.741568088531494
        scale:
        -   0.05619508144902248
        zero_point:
        -   25
        ori_min:
        -   -8.588177680969238
        ori_max:
        -   5.741568088531494
    /model.6/cv2/act/Mul_output_0:
        qtype: asymmetric_quantized
        qmethod: layer
        dtype: int8
        min:
        -   -0.27846458554267883
        max:
        -   5.723198413848877
        scale:
        -   0.02353593333094728
        zero_point:
        -   -116
        ori_min:
        -   -0.27846458554267883
        ori_max:
        -   5.723198413848877
    /model.7/conv/Conv_output_0:
        qtype: asymmetric_quantized
        qmethod: layer
        dtype: int8
        min:
        -   -11.592144012451172
        max:
        -   6.044778347015381
        scale:
        -   0.06916440140967275
        zero_point:
        -   40
        ori_min:
        -   -11.592144012451172
        ori_max:
        -   6.044778347015381
    /model.7/act/Mul_output_0:
        qtype: asymmetric_quantized
        qmethod: layer
        dtype: int8
        min:
        -   -0.27846458554267883
        max:
        -   6.030484676361084
        scale:
        -   0.024740977497661815
        zero_point:
        -   -117
        ori_min:
        -   -0.27846458554267883
        ori_max:
        -   6.030484676361084
    /model.8/cv1/conv/Conv_output_0:
        qtype: asymmetric_quantized
        qmethod: layer
        dtype: int8
        min:
        -   -17.914066314697266
        max:
        -   11.3062105178833
        scale:
        -   0.11458932091208066
        zero_point:
        -   28
        ori_min:
        -   -17.914066314697266
        ori_max:
        -   11.3062105178833
    /model.8/cv1/act/Mul_output_0:
        qtype: asymmetric_quantized
        qmethod: layer
        dtype: int8
        min:
        -   -0.27846455574035645
        max:
        -   11.306071281433105
        scale:
        -   0.04542955230264103
        zero_point:
        -   -122
        ori_min:
        -   -0.27846455574035645
        ori_max:
        -   11.306071281433105
    /model.8/Split_output_0:
        qtype: asymmetric_quantized
        qmethod: layer
        dtype: int8
        min:
        -   -0.27846455574035645
        max:
        -   11.306071281433105
        scale:
        -   0.04542955230264103
        zero_point:
        -   -122
        ori_min:
        -   -0.27846455574035645
        ori_max:
        -   11.306071281433105
    /model.8/Split_output_1:
        qtype: asymmetric_quantized
        qmethod: layer
        dtype: int8
        min:
        -   -0.27846455574035645
        max:
        -   8.097661018371582
        scale:
        -   0.03284755127102721
        zero_point:
        -   -120
        ori_min:
        -   -0.27846455574035645
        ori_max:
        -   8.097661018371582
    /model.8/m.0/cv1/conv/Conv_output_0:
        qtype: asymmetric_quantized
        qmethod: layer
        dtype: int8
        min:
        -   -10.362154960632324
        max:
        -   6.108405113220215
        scale:
        -   0.06459043166216683
        zero_point:
        -   32
        ori_min:
        -   -10.362154960632324
        ori_max:
        -   6.108405113220215
    /model.8/m.0/cv1/act/Mul_output_0:
        qtype: asymmetric_quantized
        qmethod: layer
        dtype: int8
        min:
        -   -0.27846455574035645
        max:
        -   6.094849586486816
        scale:
        -   0.024993388793047737
        zero_point:
        -   -117
        ori_min:
        -   -0.27846455574035645
        ori_max:
        -   6.094849586486816
    /model.8/m.0/cv2/conv/Conv_output_0:
        qtype: asymmetric_quantized
        qmethod: layer
        dtype: int8
        min:
        -   -11.316831588745117
        max:
        -   8.081510543823242
        scale:
        -   0.07607192993164062
        zero_point:
        -   21
        ori_min:
        -   -11.316831588745117
        ori_max:
        -   8.081510543823242
    /model.8/m.0/cv2/act/Mul_output_0:
        qtype: asymmetric_quantized
        qmethod: layer
        dtype: int8
        min:
        -   -0.27846455574035645
        max:
        -   8.079012870788574
        scale:
        -   0.03277442128050561
        zero_point:
        -   -120
        ori_min:
        -   -0.27846455574035645
        ori_max:
        -   8.079012870788574
    /model.8/m.0/Add_output_0:
        qtype: asymmetric_quantized
        qmethod: layer
        dtype: int8
        min:
        -   -0.5569282174110413
        max:
        -   8.378287315368652
        scale:
        -   0.03504006091286154
        zero_point:
        -   -112
        ori_min:
        -   -0.5569282174110413
        ori_max:
        -   8.378287315368652
    /model.8/Concat_output_0:
        qtype: asymmetric_quantized
        qmethod: layer
        dtype: int8
        min:
        -   -0.5569282174110413
        max:
        -   11.306071281433105
        scale:
        -   0.04652156666213391
        zero_point:
        -   -116
        ori_min:
        -   -0.5569282174110413
        ori_max:
        -   11.306071281433105
    /model.8/cv2/conv/Conv_output_0:
        qtype: asymmetric_quantized
        qmethod: layer
        dtype: int8
        min:
        -   -10.615154266357422
        max:
        -   6.709399700164795
        scale:
        -   0.06793942731969496
        zero_point:
        -   28
        ori_min:
        -   -10.615154266357422
        ori_max:
        -   6.709399700164795
    /model.8/cv2/act/Mul_output_0:
        qtype: asymmetric_quantized
        qmethod: layer
        dtype: int8
        min:
        -   -0.27846458554267883
        max:
        -   6.701228141784668
        scale:
        -   0.027371344028734694
        zero_point:
        -   -118
        ori_min:
        -   -0.27846458554267883
        ori_max:
        -   6.701228141784668
    /model.9/cv1/conv/Conv_output_0:
        qtype: asymmetric_quantized
        qmethod: layer
        dtype: int8
        min:
        -   -3.7674927711486816
        max:
        -   7.691059112548828
        scale:
        -   0.04493549758312749
        zero_point:
        -   -44
        ori_min:
        -   -3.7674927711486816
        ori_max:
        -   7.691059112548828
    /model.9/cv1/act/Mul_output_0:
        qtype: asymmetric_quantized
        qmethod: layer
        dtype: int8
        min:
        -   -0.27846455574035645
        max:
        -   7.687546730041504
        scale:
        -   0.03123925994424259
        zero_point:
        -   -119
        ori_min:
        -   -0.27846455574035645
        ori_max:
        -   7.687546730041504
    /model.9/m/MaxPool_output_0:
        qtype: asymmetric_quantized
        qmethod: layer
        dtype: int8
        min:
        -   -0.27846455574035645
        max:
        -   7.687546730041504
        scale:
        -   0.03123925994424259
        zero_point:
        -   -119
        ori_min:
        -   -0.2729640305042267
        ori_max:
        -   7.687546730041504
    /model.9/m_1/MaxPool_output_0:
        qtype: asymmetric_quantized
        qmethod: layer
        dtype: int8
        min:
        -   -0.27846455574035645
        max:
        -   7.687546730041504
        scale:
        -   0.03123925994424259
        zero_point:
        -   -119
        ori_min:
        -   -0.24689170718193054
        ori_max:
        -   7.687546730041504
    /model.9/m_2/MaxPool_output_0:
        qtype: asymmetric_quantized
        qmethod: layer
        dtype: int8
        min:
        -   -0.27846455574035645
        max:
        -   7.687546730041504
        scale:
        -   0.03123925994424259
        zero_point:
        -   -119
        ori_min:
        -   -0.09398578107357025
        ori_max:
        -   7.687546730041504
    /model.9/Concat_output_0:
        qtype: asymmetric_quantized
        qmethod: layer
        dtype: int8
        min:
        -   -0.27846455574035645
        max:
        -   7.687546730041504
        scale:
        -   0.03123925994424259
        zero_point:
        -   -119
        ori_min:
        -   -0.27846455574035645
        ori_max:
        -   7.687546730041504
    /model.9/cv2/conv/Conv_output_0:
        qtype: asymmetric_quantized
        qmethod: layer
        dtype: int8
        min:
        -   -8.748022079467773
        max:
        -   3.9275054931640625
        scale:
        -   0.049707951265222886
        zero_point:
        -   48
        ori_min:
        -   -8.748022079467773
        ori_max:
        -   3.9275054931640625
    /model.9/cv2/act/Mul_output_0:
        qtype: asymmetric_quantized
        qmethod: layer
        dtype: int8
        min:
        -   -0.27846458554267883
        max:
        -   3.8516557216644287
        scale:
        -   0.016196550224341598
        zero_point:
        -   -111
        ori_min:
        -   -0.27846458554267883
        ori_max:
        -   3.8516557216644287
    /model.10/Resize_output_0:
        qtype: asymmetric_quantized
        qmethod: layer
        dtype: int8
        min:
        -   -0.27846458554267883
        max:
        -   3.8516557216644287
        scale:
        -   0.016196550224341598
        zero_point:
        -   -111
        ori_min:
        -   -0.27846458554267883
        ori_max:
        -   3.8516557216644287
    /model.11/Concat_output_0:
        qtype: asymmetric_quantized
        qmethod: layer
        dtype: int8
        min:
        -   -0.27846458554267883
        max:
        -   5.723198413848877
        scale:
        -   0.02353593333094728
        zero_point:
        -   -116
        ori_min:
        -   -0.27846458554267883
        ori_max:
        -   5.723198413848877
    /model.12/cv1/conv/Conv_output_0:
        qtype: asymmetric_quantized
        qmethod: layer
        dtype: int8
        min:
        -   -8.999727249145508
        max:
        -   6.202613830566406
        scale:
        -   0.059617023842007504
        zero_point:
        -   23
        ori_min:
        -   -8.999727249145508
        ori_max:
        -   6.202613830566406
    /model.12/cv1/act/Mul_output_0:
        qtype: asymmetric_quantized
        qmethod: layer
        dtype: int8
        min:
        -   -0.27846455574035645
        max:
        -   6.190083980560303
        scale:
        -   0.025366857005100624
        zero_point:
        -   -117
        ori_min:
        -   -0.27846455574035645
        ori_max:
        -   6.190083980560303
    /model.12/Split_output_0:
        qtype: asymmetric_quantized
        qmethod: layer
        dtype: int8
        min:
        -   -0.27846455574035645
        max:
        -   6.168141841888428
        scale:
        -   0.02528080940246582
        zero_point:
        -   -117
        ori_min:
        -   -0.27846455574035645
        ori_max:
        -   6.168141841888428
    /model.12/Split_output_1:
        qtype: asymmetric_quantized
        qmethod: layer
        dtype: int8
        min:
        -   -0.27846455574035645
        max:
        -   6.190083980560303
        scale:
        -   0.025366857005100624
        zero_point:
        -   -117
        ori_min:
        -   -0.27846455574035645
        ori_max:
        -   6.190083980560303
    /model.12/m.0/cv1/conv/Conv_output_0:
        qtype: asymmetric_quantized
        qmethod: layer
        dtype: int8
        min:
        -   -11.746196746826172
        max:
        -   7.786149501800537
        scale:
        -   0.07659743626912435
        zero_point:
        -   25
        ori_min:
        -   -11.746196746826172
        ori_max:
        -   7.786149501800537
    /model.12/m.0/cv1/act/Mul_output_0:
        qtype: asymmetric_quantized
        qmethod: layer
        dtype: int8
        min:
        -   -0.27846458554267883
        max:
        -   7.782916069030762
        scale:
        -   0.031613257468915454
        zero_point:
        -   -119
        ori_min:
        -   -0.27846458554267883
        ori_max:
        -   7.782916069030762
    /model.12/m.0/cv2/conv/Conv_output_0:
        qtype: asymmetric_quantized
        qmethod: layer
        dtype: int8
        min:
        -   -8.124229431152344
        max:
        -   7.782156944274902
        scale:
        -   0.0623779857859892
        zero_point:
        -   2
        ori_min:
        -   -8.124229431152344
        ori_max:
        -   7.782156944274902
    /model.12/m.0/cv2/act/Mul_output_0:
        qtype: asymmetric_quantized
        qmethod: layer
        dtype: int8
        min:
        -   -0.27846458554267883
        max:
        -   7.77891206741333
        scale:
        -   0.03159755550178827
        zero_point:
        -   -119
        ori_min:
        -   -0.27846458554267883
        ori_max:
        -   7.77891206741333
    /model.12/Concat_output_0:
        qtype: asymmetric_quantized
        qmethod: layer
        dtype: int8
        min:
        -   -0.27846458554267883
        max:
        -   7.77891206741333
        scale:
        -   0.03159755550178827
        zero_point:
        -   -119
        ori_min:
        -   -0.27846458554267883
        ori_max:
        -   7.77891206741333
    /model.12/cv2/conv/Conv_output_0:
        qtype: asymmetric_quantized
        qmethod: layer
        dtype: int8
        min:
        -   -9.5195951461792
        max:
        -   7.482564926147461
        scale:
        -   0.06667513753853592
        zero_point:
        -   15
        ori_min:
        -   -9.5195951461792
        ori_max:
        -   7.482564926147461
    /model.12/cv2/act/Mul_output_0:
        qtype: asymmetric_quantized
        qmethod: layer
        dtype: int8
        min:
        -   -0.27846455574035645
        max:
        -   7.478355884552002
        scale:
        -   0.030418903687421013
        zero_point:
        -   -119
        ori_min:
        -   -0.27846455574035645
        ori_max:
        -   7.478355884552002
    /model.13/Resize_output_0:
        qtype: asymmetric_quantized
        qmethod: layer
        dtype: int8
        min:
        -   -0.27846455574035645
        max:
        -   7.478355884552002
        scale:
        -   0.030418903687421013
        zero_point:
        -   -119
        ori_min:
        -   -0.27846455574035645
        ori_max:
        -   7.478355884552002
    /model.14/Concat_output_0:
        qtype: asymmetric_quantized
        qmethod: layer
        dtype: int8
        min:
        -   -0.27846458554267883
        max:
        -   8.09622573852539
        scale:
        -   0.032841922839482625
        zero_point:
        -   -120
        ori_min:
        -   -0.27846458554267883
        ori_max:
        -   8.09622573852539
    /model.15/cv1/conv/Conv_output_0:
        qtype: asymmetric_quantized
        qmethod: layer
        dtype: int8
        min:
        -   -6.469719409942627
        max:
        -   4.710655212402344
        scale:
        -   0.04384460636213714
        zero_point:
        -   20
        ori_min:
        -   -6.469719409942627
        ori_max:
        -   4.710655212402344
    /model.15/cv1/act/Mul_output_0:
        qtype: asymmetric_quantized
        qmethod: layer
        dtype: int8
        min:
        -   -0.27846458554267883
        max:
        -   4.668642520904541
        scale:
        -   0.019400420025283215
        zero_point:
        -   -114
        ori_min:
        -   -0.27846458554267883
        ori_max:
        -   4.668642520904541
    /model.15/Split_output_0:
        qtype: asymmetric_quantized
        qmethod: layer
        dtype: int8
        min:
        -   -0.27846458554267883
        max:
        -   4.668642520904541
        scale:
        -   0.019400420025283215
        zero_point:
        -   -114
        ori_min:
        -   -0.27846458554267883
        ori_max:
        -   4.668642520904541
    /model.15/Split_output_1:
        qtype: asymmetric_quantized
        qmethod: layer
        dtype: int8
        min:
        -   -0.27846458554267883
        max:
        -   4.620754241943359
        scale:
        -   0.019212622852886423
        zero_point:
        -   -114
        ori_min:
        -   -0.27846458554267883
        ori_max:
        -   4.620754241943359
    /model.15/m.0/cv1/conv/Conv_output_0:
        qtype: asymmetric_quantized
        qmethod: layer
        dtype: int8
        min:
        -   -6.990852355957031
        max:
        -   5.9308929443359375
        scale:
        -   0.050673510981541055
        zero_point:
        -   10
        ori_min:
        -   -6.990852355957031
        ori_max:
        -   5.9308929443359375
    /model.15/m.0/cv1/act/Mul_output_0:
        qtype: asymmetric_quantized
        qmethod: layer
        dtype: int8
        min:
        -   -0.27846455574035645
        max:
        -   5.915181636810303
        scale:
        -   0.024288808598237878
        zero_point:
        -   -117
        ori_min:
        -   -0.27846455574035645
        ori_max:
        -   5.915181636810303
    /model.15/m.0/cv2/conv/Conv_output_0:
        qtype: asymmetric_quantized
        qmethod: layer
        dtype: int8
        min:
        -   -7.787020206451416
        max:
        -   7.560711860656738
        scale:
        -   0.060187184576894724
        zero_point:
        -   1
        ori_min:
        -   -7.787020206451416
        ori_max:
        -   7.560711860656738
    /model.15/m.0/cv2/act/Mul_output_0:
        qtype: asymmetric_quantized
        qmethod: layer
        dtype: int8
        min:
        -   -0.27846455574035645
        max:
        -   7.556778907775879
        scale:
        -   0.03072644495496563
        zero_point:
        -   -119
        ori_min:
        -   -0.27846455574035645
        ori_max:
        -   7.556778907775879
    /model.15/Concat_output_0:
        qtype: asymmetric_quantized
        qmethod: layer
        dtype: int8
        min:
        -   -0.27846458554267883
        max:
        -   7.556778907775879
        scale:
        -   0.030726445071837482
        zero_point:
        -   -119
        ori_min:
        -   -0.27846458554267883
        ori_max:
        -   7.556778907775879
    /model.15/cv2/conv/Conv_output_0:
        qtype: asymmetric_quantized
        qmethod: layer
        dtype: int8
        min:
        -   -7.776879787445068
        max:
        -   6.192175388336182
        scale:
        -   0.05478060853247549
        zero_point:
        -   14
        ori_min:
        -   -7.776879787445068
        ori_max:
        -   6.192175388336182
    /model.15/cv2/act/Mul_output_0:
        qtype: asymmetric_quantized
        qmethod: layer
        dtype: int8
        min:
        -   -0.27846458554267883
        max:
        -   6.179535865783691
        scale:
        -   0.025325491965985766
        zero_point:
        -   -117
        ori_min:
        -   -0.27846458554267883
        ori_max:
        -   6.179535865783691
    /model.16/conv/Conv_output_0:
        qtype: asymmetric_quantized
        qmethod: layer
        dtype: int8
        min:
        -   -8.894359588623047
        max:
        -   8.203753471374512
        scale:
        -   0.0670514237646963
        zero_point:
        -   5
        ori_min:
        -   -8.894359588623047
        ori_max:
        -   8.203753471374512
    /model.16/act/Mul_output_0:
        qtype: asymmetric_quantized
        qmethod: layer
        dtype: int8
        min:
        -   -0.27846458554267883
        max:
        -   8.201509475708008
        scale:
        -   0.03325480024019877
        zero_point:
        -   -120
        ori_min:
        -   -0.27846458554267883
        ori_max:
        -   8.201509475708008
    /model.17/Concat_output_0:
        qtype: asymmetric_quantized
        qmethod: layer
        dtype: int8
        min:
        -   -0.27846458554267883
        max:
        -   8.201509475708008
        scale:
        -   0.03325480024019877
        zero_point:
        -   -120
        ori_min:
        -   -0.27846458554267883
        ori_max:
        -   8.201509475708008
    /model.18/cv1/conv/Conv_output_0:
        qtype: asymmetric_quantized
        qmethod: layer
        dtype: int8
        min:
        -   -8.966124534606934
        max:
        -   7.219462871551514
        scale:
        -   0.06347289178885665
        zero_point:
        -   13
        ori_min:
        -   -8.966124534606934
        ori_max:
        -   7.219462871551514
    /model.18/cv1/act/Mul_output_0:
        qtype: asymmetric_quantized
        qmethod: layer
        dtype: int8
        min:
        -   -0.27846458554267883
        max:
        -   7.214180946350098
        scale:
        -   0.029382923654481478
        zero_point:
        -   -119
        ori_min:
        -   -0.27846458554267883
        ori_max:
        -   7.214180946350098
    /model.18/Split_output_0:
        qtype: asymmetric_quantized
        qmethod: layer
        dtype: int8
        min:
        -   -0.27846455574035645
        max:
        -   4.870755672454834
        scale:
        -   0.020193020502726238
        zero_point:
        -   -114
        ori_min:
        -   -0.27846455574035645
        ori_max:
        -   4.870755672454834
    /model.18/Split_output_1:
        qtype: asymmetric_quantized
        qmethod: layer
        dtype: int8
        min:
        -   -0.27846458554267883
        max:
        -   7.214180946350098
        scale:
        -   0.029382923654481478
        zero_point:
        -   -119
        ori_min:
        -   -0.27846458554267883
        ori_max:
        -   7.214180946350098
    /model.18/m.0/cv1/conv/Conv_output_0:
        qtype: asymmetric_quantized
        qmethod: layer
        dtype: int8
        min:
        -   -9.196459770202637
        max:
        -   5.522988796234131
        scale:
        -   0.05772332771151673
        zero_point:
        -   31
        ori_min:
        -   -9.196459770202637
        ori_max:
        -   5.522988796234131
    /model.18/m.0/cv1/act/Mul_output_0:
        qtype: asymmetric_quantized
        qmethod: layer
        dtype: int8
        min:
        -   -0.27846458554267883
        max:
        -   5.501018524169922
        scale:
        -   0.022664639645931767
        zero_point:
        -   -116
        ori_min:
        -   -0.27846458554267883
        ori_max:
        -   5.501018524169922
    /model.18/m.0/cv2/conv/Conv_output_0:
        qtype: asymmetric_quantized
        qmethod: layer
        dtype: int8
        min:
        -   -9.386226654052734
        max:
        -   8.980707168579102
        scale:
        -   0.07202719146130132
        zero_point:
        -   2
        ori_min:
        -   -9.386226654052734
        ori_max:
        -   8.980707168579102
    /model.18/m.0/cv2/act/Mul_output_0:
        qtype: asymmetric_quantized
        qmethod: layer
        dtype: int8
        min:
        -   -0.27846458554267883
        max:
        -   8.979578018188477
        scale:
        -   0.03630604942639669
        zero_point:
        -   -120
        ori_min:
        -   -0.27846458554267883
        ori_max:
        -   8.979578018188477
    /model.18/Concat_output_0:
        qtype: asymmetric_quantized
        qmethod: layer
        dtype: int8
        min:
        -   -0.27846458554267883
        max:
        -   8.979578018188477
        scale:
        -   0.03630604942639669
        zero_point:
        -   -120
        ori_min:
        -   -0.27846458554267883
        ori_max:
        -   8.979578018188477
    /model.18/cv2/conv/Conv_output_0:
        qtype: asymmetric_quantized
        qmethod: layer
        dtype: int8
        min:
        -   -10.023844718933105
        max:
        -   5.285024166107178
        scale:
        -   0.060034779941334444
        zero_point:
        -   39
        ori_min:
        -   -10.023844718933105
        ori_max:
        -   5.285024166107178
    /model.18/cv2/act/Mul_output_0:
        qtype: asymmetric_quantized
        qmethod: layer
        dtype: int8
        min:
        -   -0.27846458554267883
        max:
        -   5.258380889892578
        scale:
        -   0.021713119511510812
        zero_point:
        -   -115
        ori_min:
        -   -0.27846458554267883
        ori_max:
        -   5.258380889892578
    /model.19/conv/Conv_output_0:
        qtype: asymmetric_quantized
        qmethod: layer
        dtype: int8
        min:
        -   -9.44360065460205
        max:
        -   7.007643222808838
        scale:
        -   0.06451468187219957
        zero_point:
        -   18
        ori_min:
        -   -9.44360065460205
        ori_max:
        -   7.007643222808838
    /model.19/act/Mul_output_0:
        qtype: asymmetric_quantized
        qmethod: layer
        dtype: int8
        min:
        -   -0.27846458554267883
        max:
        -   7.001307964324951
        scale:
        -   0.028548127646539724
        zero_point:
        -   -118
        ori_min:
        -   -0.27846458554267883
        ori_max:
        -   7.001307964324951
    /model.20/Concat_output_0:
        qtype: asymmetric_quantized
        qmethod: layer
        dtype: int8
        min:
        -   -0.27846458554267883
        max:
        -   7.001307964324951
        scale:
        -   0.028548127646539724
        zero_point:
        -   -118
        ori_min:
        -   -0.27846458554267883
        ori_max:
        -   7.001307964324951
    /model.21/cv1/conv/Conv_output_0:
        qtype: asymmetric_quantized
        qmethod: layer
        dtype: int8
        min:
        -   -7.582674980163574
        max:
        -   6.885632038116455
        scale:
        -   0.0567384588952158
        zero_point:
        -   6
        ori_min:
        -   -7.582674980163574
        ori_max:
        -   6.885632038116455
    /model.21/cv1/act/Mul_output_0:
        qtype: asymmetric_quantized
        qmethod: layer
        dtype: int8
        min:
        -   -0.27846455574035645
        max:
        -   6.878600120544434
        scale:
        -   0.02806692029915604
        zero_point:
        -   -118
        ori_min:
        -   -0.27846455574035645
        ori_max:
        -   6.878600120544434
    /model.21/Split_output_0:
        qtype: asymmetric_quantized
        qmethod: layer
        dtype: int8
        min:
        -   -0.27846455574035645
        max:
        -   4.473106384277344
        scale:
        -   0.01863361152948118
        zero_point:
        -   -113
        ori_min:
        -   -0.27846455574035645
        ori_max:
        -   4.473106384277344
    /model.21/Split_output_1:
        qtype: asymmetric_quantized
        qmethod: layer
        dtype: int8
        min:
        -   -0.27846455574035645
        max:
        -   6.878600120544434
        scale:
        -   0.02806692029915604
        zero_point:
        -   -118
        ori_min:
        -   -0.27846455574035645
        ori_max:
        -   6.878600120544434
    /model.21/m.0/cv1/conv/Conv_output_0:
        qtype: asymmetric_quantized
        qmethod: layer
        dtype: int8
        min:
        -   -8.82463550567627
        max:
        -   5.760632038116455
        scale:
        -   0.057197127622716566
        zero_point:
        -   26
        ori_min:
        -   -8.82463550567627
        ori_max:
        -   5.760632038116455
    /model.21/m.0/cv1/act/Mul_output_0:
        qtype: asymmetric_quantized
        qmethod: layer
        dtype: int8
        min:
        -   -0.27846458554267883
        max:
        -   5.742547988891602
        scale:
        -   0.023611814017389335
        zero_point:
        -   -116
        ori_min:
        -   -0.27846458554267883
        ori_max:
        -   5.742547988891602
    /model.21/m.0/cv2/conv/Conv_output_0:
        qtype: asymmetric_quantized
        qmethod: layer
        dtype: int8
        min:
        -   -13.473310470581055
        max:
        -   10.438217163085938
        scale:
        -   0.09377069660261565
        zero_point:
        -   16
        ori_min:
        -   -13.473310470581055
        ori_max:
        -   10.438217163085938
    /model.21/m.0/cv2/act/Mul_output_0:
        qtype: asymmetric_quantized
        qmethod: layer
        dtype: int8
        min:
        -   -0.27846455574035645
        max:
        -   10.437911033630371
        scale:
        -   0.042025002311257754
        zero_point:
        -   -121
        ori_min:
        -   -0.27846455574035645
        ori_max:
        -   10.437911033630371
    /model.21/Concat_output_0:
        qtype: asymmetric_quantized
        qmethod: layer
        dtype: int8
        min:
        -   -0.27846455574035645
        max:
        -   10.437911033630371
        scale:
        -   0.042025002311257754
        zero_point:
        -   -121
        ori_min:
        -   -0.27846455574035645
        ori_max:
        -   10.437911033630371
    /model.21/cv2/conv/Conv_output_0:
        qtype: asymmetric_quantized
        qmethod: layer
        dtype: int8
        min:
        -   -21.366090774536133
        max:
        -   7.835981369018555
        scale:
        -   0.11451792997472426
        zero_point:
        -   59
        ori_min:
        -   -21.366090774536133
        ori_max:
        -   7.835981369018555
    /model.21/cv2/act/Mul_output_0:
        qtype: asymmetric_quantized
        qmethod: layer
        dtype: int8
        min:
        -   -0.27846455574035645
        max:
        -   7.832885265350342
        scale:
        -   0.031809214984669404
        zero_point:
        -   -119
        ori_min:
        -   -0.27846455574035645
        ori_max:
        -   7.832885265350342
    /model.22/cv4.2/cv4.2.0/conv/Conv_output_0:
        qtype: asymmetric_quantized
        qmethod: layer
        dtype: int8
        min:
        -   -12.361520767211914
        max:
        -   7.322029113769531
        scale:
        -   0.07719039169012332
        zero_point:
        -   32
        ori_min:
        -   -12.361520767211914
        ori_max:
        -   7.322029113769531
    /model.22/cv4.2/cv4.2.0/act/Mul_output_0:
        qtype: asymmetric_quantized
        qmethod: layer
        dtype: int8
        min:
        -   -0.27846455574035645
        max:
        -   7.317193984985352
        scale:
        -   0.029786896238140032
        zero_point:
        -   -119
        ori_min:
        -   -0.27846455574035645
        ori_max:
        -   7.317193984985352
    /model.22/cv4.2/cv4.2.1/conv/Conv_output_0:
        qtype: asymmetric_quantized
        qmethod: layer
        dtype: int8
        min:
        -   -10.42900562286377
        max:
        -   5.484958648681641
        scale:
        -   0.062407703025668275
        zero_point:
        -   39
        ori_min:
        -   -10.42900562286377
        ori_max:
        -   5.484958648681641
    /model.22/cv4.2/cv4.2.1/act/Mul_output_0:
        qtype: asymmetric_quantized
        qmethod: layer
        dtype: int8
        min:
        -   -0.27846458554267883
        max:
        -   5.462297439575195
        scale:
        -   0.022512792255364213
        zero_point:
        -   -116
        ori_min:
        -   -0.27846458554267883
        ori_max:
        -   5.462297439575195
    /model.22/cv4.2/cv4.2.2/Conv_output_0:
        qtype: asymmetric_quantized
        qmethod: layer
        dtype: int8
        min:
        -   -3.540092945098877
        max:
        -   1.9001686573028564
        scale:
        -   0.021334359225104838
        zero_point:
        -   38
        ori_min:
        -   -3.540092945098877
        ori_max:
        -   1.9001686573028564
    /model.22/Reshape_2_output_0_shape4_/model.22/Concat:
        qtype: asymmetric_quantized
        qmethod: layer
        dtype: int8
        min:
        -   -3.540092945098877
        max:
        -   1.9001686573028564
        scale:
        -   0.021334359225104838
        zero_point:
        -   38
        ori_min:
        -   -3.540092945098877
        ori_max:
        -   1.9001686573028564
    /model.22/cv2.2/cv2.2.0/conv/Conv_output_0:
        qtype: asymmetric_quantized
        qmethod: layer
        dtype: int8
        min:
        -   -9.638378143310547
        max:
        -   8.687417030334473
        scale:
        -   0.0718658634260589
        zero_point:
        -   6
        ori_min:
        -   -9.638378143310547
        ori_max:
        -   8.687417030334473
    /model.22/cv2.2/cv2.2.0/act/Mul_output_0:
        qtype: asymmetric_quantized
        qmethod: layer
        dtype: int8
        min:
        -   -0.27846455574035645
        max:
        -   8.685951232910156
        scale:
        -   0.03515457172019809
        zero_point:
        -   -120
        ori_min:
        -   -0.27846455574035645
        ori_max:
        -   8.685951232910156
    /model.22/cv2.2/cv2.2.1/conv/Conv_output_0:
        qtype: asymmetric_quantized
        qmethod: layer
        dtype: int8
        min:
        -   -22.243267059326172
        max:
        -   31.448650360107422
        scale:
        -   0.21055653889973958
        zero_point:
        -   -22
        ori_min:
        -   -22.243267059326172
        ori_max:
        -   31.448650360107422
    /model.22/cv2.2/cv2.2.1/act/Mul_output_0:
        qtype: asymmetric_quantized
        qmethod: layer
        dtype: int8
        min:
        -   -0.27846455574035645
        max:
        -   31.448650360107422
        scale:
        -   0.1244200584935207
        zero_point:
        -   -126
        ori_min:
        -   -0.27846455574035645
        ori_max:
        -   31.448650360107422
    /model.22/cv2.2/cv2.2.2/Conv_output_0:
        qtype: asymmetric_quantized
        qmethod: layer
        dtype: int8
        min:
        -   -17.04766845703125
        max:
        -   17.449504852294922
        scale:
        -   0.13528303258559282
        zero_point:
        -   -2
        ori_min:
        -   -17.04766845703125
        ori_max:
        -   17.449504852294922
    /model.22/cv3.2/cv3.2.0/conv/Conv_output_0:
        qtype: asymmetric_quantized
        qmethod: layer
        dtype: int8
        min:
        -   -13.342042922973633
        max:
        -   9.066180229187012
        scale:
        -   0.0878753849104339
        zero_point:
        -   24
        ori_min:
        -   -13.342042922973633
        ori_max:
        -   9.066180229187012
    /model.22/cv3.2/cv3.2.0/act/Mul_output_0:
        qtype: asymmetric_quantized
        qmethod: layer
        dtype: int8
        min:
        -   -0.27846458554267883
        max:
        -   9.065133094787598
        scale:
        -   0.03664155953070697
        zero_point:
        -   -120
        ori_min:
        -   -0.27846458554267883
        ori_max:
        -   9.065133094787598
    /model.22/cv3.2/cv3.2.1/conv/Conv_output_0:
        qtype: asymmetric_quantized
        qmethod: layer
        dtype: int8
        min:
        -   -17.06352996826172
        max:
        -   17.20944595336914
        scale:
        -   0.13440382714365043
        zero_point:
        -   -1
        ori_min:
        -   -17.06352996826172
        ori_max:
        -   17.20944595336914
    /model.22/cv3.2/cv3.2.1/act/Mul_output_0:
        qtype: asymmetric_quantized
        qmethod: layer
        dtype: int8
        min:
        -   -0.27846455574035645
        max:
        -   17.20944595336914
        scale:
        -   0.0685800412121941
        zero_point:
        -   -124
        ori_min:
        -   -0.27846455574035645
        ori_max:
        -   17.20944595336914
    /model.22/cv3.2/cv3.2.2/Conv_output_0:
        qtype: asymmetric_quantized
        qmethod: layer
        dtype: int8
        min:
        -   -17.04766845703125
        max:
        -   3.488656997680664
        scale:
        -   0.08053460962632124
        zero_point:
        -   84
        ori_min:
        -   -70.2824478149414
        ori_max:
        -   3.488656997680664
    /model.22/Concat_3_output_0:
        qtype: asymmetric_quantized
        qmethod: layer
        dtype: int8
        min:
        -   -17.04766845703125
        max:
        -   17.449504852294922
        scale:
        -   0.13528303258559282
        zero_point:
        -   -2
        ori_min:
        -   -70.2824478149414
        ori_max:
        -   17.449504852294922
    /model.22/Reshape_5_output_0_shape4_/model.22/Concat_4:
        qtype: asymmetric_quantized
        qmethod: layer
        dtype: int8
        min:
        -   -17.04766845703125
        max:
        -   17.449504852294922
        scale:
        -   0.13528303258559282
        zero_point:
        -   -2
        ori_min:
        -   -70.2824478149414
        ori_max:
        -   17.449504852294922
    /model.22/cv4.1/cv4.1.0/conv/Conv_output_0:
        qtype: asymmetric_quantized
        qmethod: layer
        dtype: int8
        min:
        -   -5.542203903198242
        max:
        -   5.666538715362549
        scale:
        -   0.04395585340612075
        zero_point:
        -   -2
        ori_min:
        -   -5.542203903198242
        ori_max:
        -   5.666538715362549
    /model.22/cv4.1/cv4.1.0/act/Mul_output_0:
        qtype: asymmetric_quantized
        qmethod: layer
        dtype: int8
        min:
        -   -0.27846455574035645
        max:
        -   5.647001266479492
        scale:
        -   0.023237120871450388
        zero_point:
        -   -116
        ori_min:
        -   -0.27846455574035645
        ori_max:
        -   5.647001266479492
    /model.22/cv4.1/cv4.1.1/conv/Conv_output_0:
        qtype: asymmetric_quantized
        qmethod: layer
        dtype: int8
        min:
        -   -7.436037063598633
        max:
        -   6.024717330932617
        scale:
        -   0.05278727213541667
        zero_point:
        -   13
        ori_min:
        -   -7.436037063598633
        ori_max:
        -   6.024717330932617
    /model.22/cv4.1/cv4.1.1/act/Mul_output_0:
        qtype: asymmetric_quantized
        qmethod: layer
        dtype: int8
        min:
        -   -0.27846455574035645
        max:
        -   6.010182857513428
        scale:
        -   0.0246613624049168
        zero_point:
        -   -117
        ori_min:
        -   -0.27846455574035645
        ori_max:
        -   6.010182857513428
    /model.22/cv4.1/cv4.1.2/Conv_output_0:
        qtype: asymmetric_quantized
        qmethod: layer
        dtype: int8
        min:
        -   -3.6561529636383057
        max:
        -   1.7662484645843506
        scale:
        -   0.021264319326363357
        zero_point:
        -   44
        ori_min:
        -   -3.6561529636383057
        ori_max:
        -   1.7662484645843506
    /model.22/Reshape_1_output_0_shape4_/model.22/Concat:
        qtype: asymmetric_quantized
        qmethod: layer
        dtype: int8
        min:
        -   -3.6561529636383057
        max:
        -   1.7662484645843506
        scale:
        -   0.021264319326363357
        zero_point:
        -   44
        ori_min:
        -   -3.6561529636383057
        ori_max:
        -   1.7662484645843506
    /model.22/cv2.1/cv2.1.0/conv/Conv_output_0:
        qtype: asymmetric_quantized
        qmethod: layer
        dtype: int8
        min:
        -   -14.372060775756836
        max:
        -   9.649580001831055
        scale:
        -   0.09420251285328585
        zero_point:
        -   25
        ori_min:
        -   -14.372060775756836
        ori_max:
        -   9.649580001831055
    /model.22/cv2.1/cv2.1.0/act/Mul_output_0:
        qtype: asymmetric_quantized
        qmethod: layer
        dtype: int8
        min:
        -   -0.27846458554267883
        max:
        -   9.648957252502441
        scale:
        -   0.03893106603154949
        zero_point:
        -   -121
        ori_min:
        -   -0.27846458554267883
        ori_max:
        -   9.648957252502441
    /model.22/cv2.1/cv2.1.1/conv/Conv_output_0:
        qtype: asymmetric_quantized
        qmethod: layer
        dtype: int8
        min:
        -   -37.81897735595703
        max:
        -   37.70153045654297
        scale:
        -   0.29615885416666665
        zero_point:
        -   0
        ori_min:
        -   -37.81897735595703
        ori_max:
        -   37.70153045654297
    /model.22/cv2.1/cv2.1.1/act/Mul_output_0:
        qtype: asymmetric_quantized
        qmethod: layer
        dtype: int8
        min:
        -   -0.27846455574035645
        max:
        -   37.70153045654297
        scale:
        -   0.148941156910915
        zero_point:
        -   -126
        ori_min:
        -   -0.27846455574035645
        ori_max:
        -   37.70153045654297
    /model.22/cv2.1/cv2.1.2/Conv_output_0:
        qtype: asymmetric_quantized
        qmethod: layer
        dtype: int8
        min:
        -   -9.590548515319824
        max:
        -   14.447309494018555
        scale:
        -   0.09426610984054266
        zero_point:
        -   -26
        ori_min:
        -   -9.590548515319824
        ori_max:
        -   14.447309494018555
    /model.22/cv3.1/cv3.1.0/conv/Conv_output_0:
        qtype: asymmetric_quantized
        qmethod: layer
        dtype: int8
        min:
        -   -9.416213035583496
        max:
        -   7.944713592529297
        scale:
        -   0.06808206520828547
        zero_point:
        -   10
        ori_min:
        -   -9.416213035583496
        ori_max:
        -   7.944713592529297
    /model.22/cv3.1/cv3.1.0/act/Mul_output_0:
        qtype: asymmetric_quantized
        qmethod: layer
        dtype: int8
        min:
        -   -0.27846455574035645
        max:
        -   7.941897869110107
        scale:
        -   0.03223671539157045
        zero_point:
        -   -119
        ori_min:
        -   -0.27846455574035645
        ori_max:
        -   7.941897869110107
    /model.22/cv3.1/cv3.1.1/conv/Conv_output_0:
        qtype: asymmetric_quantized
        qmethod: layer
        dtype: int8
        min:
        -   -10.382081031799316
        max:
        -   14.28774642944336
        scale:
        -   0.09674442141663794
        zero_point:
        -   -21
        ori_min:
        -   -10.382081031799316
        ori_max:
        -   14.28774642944336
    /model.22/cv3.1/cv3.1.1/act/Mul_output_0:
        qtype: asymmetric_quantized
        qmethod: layer
        dtype: int8
        min:
        -   -0.27846458554267883
        max:
        -   14.287737846374512
        scale:
        -   0.05712236247810663
        zero_point:
        -   -123
        ori_min:
        -   -0.27846458554267883
        ori_max:
        -   14.287737846374512
    /model.22/cv3.1/cv3.1.2/Conv_output_0:
        qtype: asymmetric_quantized
        qmethod: layer
        dtype: int8
        min:
        -   -17.04766845703125
        max:
        -   0.0
        scale:
        -   0.06685360179227941
        zero_point:
        -   127
        ori_min:
        -   -45.249141693115234
        ori_max:
        -   -1.0447964668273926
    /model.22/Concat_2_output_0:
        qtype: asymmetric_quantized
        qmethod: layer
        dtype: int8
        min:
        -   -17.04766845703125
        max:
        -   14.447309494018555
        scale:
        -   0.12350971745509727
        zero_point:
        -   10
        ori_min:
        -   -45.249141693115234
        ori_max:
        -   14.447309494018555
    /model.22/Reshape_4_output_0_shape4_/model.22/Concat_4:
        qtype: asymmetric_quantized
        qmethod: layer
        dtype: int8
        min:
        -   -17.04766845703125
        max:
        -   14.447309494018555
        scale:
        -   0.12350971745509727
        zero_point:
        -   10
        ori_min:
        -   -45.249141693115234
        ori_max:
        -   14.447309494018555
    /model.22/proto/cv1/conv/Conv_output_0:
        qtype: asymmetric_quantized
        qmethod: layer
        dtype: int8
        min:
        -   -8.030123710632324
        max:
        -   5.562648773193359
        scale:
        -   0.05330499013264974
        zero_point:
        -   23
        ori_min:
        -   -8.030123710632324
        ori_max:
        -   5.562648773193359
    /model.22/proto/cv1/act/Mul_output_0:
        qtype: asymmetric_quantized
        qmethod: layer
        dtype: int8
        min:
        -   -0.27846458554267883
        max:
        -   5.541378021240234
        scale:
        -   0.022822912183462406
        zero_point:
        -   -116
        ori_min:
        -   -0.27846458554267883
        ori_max:
        -   5.541378021240234
    /model.22/proto/upsample/ConvTranspose_output_0:
        qtype: asymmetric_quantized
        qmethod: layer
        dtype: int8
        min:
        -   -1.8444315195083618
        max:
        -   2.1624503135681152
        scale:
        -   0.015713262090495988
        zero_point:
        -   -11
        ori_min:
        -   -1.8444315195083618
        ori_max:
        -   2.1624503135681152
    /model.22/proto/cv2/conv/Conv_output_0:
        qtype: asymmetric_quantized
        qmethod: layer
        dtype: int8
        min:
        -   -8.328421592712402
        max:
        -   4.901783466339111
        scale:
        -   0.05188315709431966
        zero_point:
        -   33
        ori_min:
        -   -8.328421592712402
        ori_max:
        -   4.901783466339111
    /model.22/proto/cv2/act/Mul_output_0:
        qtype: asymmetric_quantized
        qmethod: layer
        dtype: int8
        min:
        -   -0.27846458554267883
        max:
        -   4.8656158447265625
        scale:
        -   0.020172864432428397
        zero_point:
        -   -114
        ori_min:
        -   -0.27846458554267883
        ori_max:
        -   4.8656158447265625
    /model.22/proto/cv3/conv/Conv_output_0:
        qtype: asymmetric_quantized
        qmethod: layer
        dtype: int8
        min:
        -   -9.255107879638672
        max:
        -   6.431521892547607
        scale:
        -   0.06151619518504423
        zero_point:
        -   22
        ori_min:
        -   -9.255107879638672
        ori_max:
        -   6.431521892547607
    output1:
        qtype: asymmetric_quantized
        qmethod: layer
        dtype: float32
        min:
        -   -0.27846458554267883
        max:
        -   6.4211835861206055
        scale: []
        zero_point: []
        ori_min:
        -   -0.27846458554267883
        ori_max:
        -   6.4211835861206055
    /model.22/cv4.0/cv4.0.0/conv/Conv_output_0:
        qtype: asymmetric_quantized
        qmethod: layer
        dtype: int8
        min:
        -   -7.23855447769165
        max:
        -   5.782702445983887
        scale:
        -   0.05106375264186485
        zero_point:
        -   14
        ori_min:
        -   -7.23855447769165
        ori_max:
        -   5.782702445983887
    /model.22/cv4.0/cv4.0.0/act/Mul_output_0:
        qtype: asymmetric_quantized
        qmethod: layer
        dtype: int8
        min:
        -   -0.27846458554267883
        max:
        -   5.764944553375244
        scale:
        -   0.02369964368203107
        zero_point:
        -   -116
        ori_min:
        -   -0.27846458554267883
        ori_max:
        -   5.764944553375244
    /model.22/cv4.0/cv4.0.1/conv/Conv_output_0:
        qtype: asymmetric_quantized
        qmethod: layer
        dtype: int8
        min:
        -   -10.48062515258789
        max:
        -   6.4171833992004395
        scale:
        -   0.066265915889366
        zero_point:
        -   30
        ori_min:
        -   -10.48062515258789
        ori_max:
        -   6.4171833992004395
    /model.22/cv4.0/cv4.0.1/act/Mul_output_0:
        qtype: asymmetric_quantized
        qmethod: layer
        dtype: int8
        min:
        -   -0.27846455574035645
        max:
        -   6.40671968460083
        scale:
        -   0.02621640878565171
        zero_point:
        -   -117
        ori_min:
        -   -0.27846455574035645
        ori_max:
        -   6.40671968460083
    /model.22/cv4.0/cv4.0.2/Conv_output_0:
        qtype: asymmetric_quantized
        qmethod: layer
        dtype: int8
        min:
        -   -2.9192209243774414
        max:
        -   1.9646435976028442
        scale:
        -   0.019152409890118766
        zero_point:
        -   24
        ori_min:
        -   -2.9192209243774414
        ori_max:
        -   1.9646435976028442
    /model.22/Reshape_output_0_shape4_/model.22/Concat:
        qtype: asymmetric_quantized
        qmethod: layer
        dtype: int8
        min:
        -   -2.9192209243774414
        max:
        -   1.9646435976028442
        scale:
        -   0.019152409890118766
        zero_point:
        -   24
        ori_min:
        -   -2.9192209243774414
        ori_max:
        -   1.9646435976028442
    /model.22/Concat_6_swap_concat_reshape_i2_out:
        qtype: asymmetric_quantized
        qmethod: layer
        dtype: int8
        min:
        -   -3.6561529636383057
        max:
        -   1.9646435976028442
        scale:
        -   0.022042339455847645
        zero_point:
        -   38
        ori_min:
        -   -3.6561529636383057
        ori_max:
        -   1.9646435976028442
    /model.22/cv2.0/cv2.0.0/conv/Conv_output_0:
        qtype: asymmetric_quantized
        qmethod: layer
        dtype: int8
        min:
        -   -10.34596061706543
        max:
        -   6.741110801696777
        scale:
        -   0.06700812321083219
        zero_point:
        -   26
        ori_min:
        -   -10.34596061706543
        ori_max:
        -   6.741110801696777
    /model.22/cv2.0/cv2.0.0/act/Mul_output_0:
        qtype: asymmetric_quantized
        qmethod: layer
        dtype: int8
        min:
        -   -0.27846458554267883
        max:
        -   6.733156204223633
        scale:
        -   0.027496552116730633
        zero_point:
        -   -118
        ori_min:
        -   -0.27846458554267883
        ori_max:
        -   6.733156204223633
    /model.22/cv2.0/cv2.0.1/conv/Conv_output_0:
        qtype: asymmetric_quantized
        qmethod: layer
        dtype: int8
        min:
        -   -29.192033767700195
        max:
        -   38.94263458251953
        scale:
        -   0.2671947778439989
        zero_point:
        -   -19
        ori_min:
        -   -29.192033767700195
        ori_max:
        -   38.94263458251953
    /model.22/cv2.0/cv2.0.1/act/Mul_output_0:
        qtype: asymmetric_quantized
        qmethod: layer
        dtype: int8
        min:
        -   -0.27846455574035645
        max:
        -   38.94263458251953
        scale:
        -   0.15380823191474466
        zero_point:
        -   -126
        ori_min:
        -   -0.27846455574035645
        ori_max:
        -   38.94263458251953
    /model.22/cv2.0/cv2.0.2/Conv_output_0:
        qtype: asymmetric_quantized
        qmethod: layer
        dtype: int8
        min:
        -   -12.275960922241211
        max:
        -   12.504631996154785
        scale:
        -   0.09717879575841568
        zero_point:
        -   -2
        ori_min:
        -   -12.275960922241211
        ori_max:
        -   12.504631996154785
    /model.22/cv3.0/cv3.0.0/conv/Conv_output_0:
        qtype: asymmetric_quantized
        qmethod: layer
        dtype: int8
        min:
        -   -9.389742851257324
        max:
        -   7.610934734344482
        scale:
        -   0.06666932386510513
        zero_point:
        -   13
        ori_min:
        -   -9.389742851257324
        ori_max:
        -   7.610934734344482
    /model.22/cv3.0/cv3.0.0/act/Mul_output_0:
        qtype: asymmetric_quantized
        qmethod: layer
        dtype: int8
        min:
        -   -0.27846458554267883
        max:
        -   7.6071696281433105
        scale:
        -   0.030924055739945056
        zero_point:
        -   -119
        ori_min:
        -   -0.27846458554267883
        ori_max:
        -   7.6071696281433105
    /model.22/cv3.0/cv3.0.1/conv/Conv_output_0:
        qtype: asymmetric_quantized
        qmethod: layer
        dtype: int8
        min:
        -   -8.61370849609375
        max:
        -   11.669035911560059
        scale:
        -   0.079540174147662
        zero_point:
        -   -20
        ori_min:
        -   -8.61370849609375
        ori_max:
        -   11.669035911560059
    /model.22/cv3.0/cv3.0.1/act/Mul_output_0:
        qtype: asymmetric_quantized
        qmethod: layer
        dtype: int8
        min:
        -   -0.27846458554267883
        max:
        -   11.668935775756836
        scale:
        -   0.04685255043646869
        zero_point:
        -   -122
        ori_min:
        -   -0.27846458554267883
        ori_max:
        -   11.668935775756836
    /model.22/cv3.0/cv3.0.2/Conv_output_0:
        qtype: asymmetric_quantized
        qmethod: layer
        dtype: int8
        min:
        -   -17.04766845703125
        max:
        -   0.0
        scale:
        -   0.06685360179227941
        zero_point:
        -   127
        ori_min:
        -   -33.753257751464844
        ori_max:
        -   -1.0290441513061523
    /model.22/Concat_1_output_0:
        qtype: asymmetric_quantized
        qmethod: layer
        dtype: int8
        min:
        -   -17.04766845703125
        max:
        -   12.504631996154785
        scale:
        -   0.11589137432621975
        zero_point:
        -   19
        ori_min:
        -   -33.753257751464844
        ori_max:
        -   12.504631996154785
    /model.22/Reshape_3_output_0_shape4_/model.22/Concat_4:
        qtype: asymmetric_quantized
        qmethod: layer
        dtype: int8
        min:
        -   -17.04766845703125
        max:
        -   12.504631996154785
        scale:
        -   0.11589137432621975
        zero_point:
        -   19
        ori_min:
        -   -33.753257751464844
        ori_max:
        -   12.504631996154785
    /model.22/Concat_4_output_0:
        qtype: asymmetric_quantized
        qmethod: layer
        dtype: int8
        min:
        -   -17.04766845703125
        max:
        -   17.449504852294922
        scale:
        -   0.13528303258559282
        zero_point:
        -   -2
        ori_min:
        -   -70.2824478149414
        ori_max:
        -   17.449504852294922
    /model.22/Split_output_0_shape4:
        qtype: asymmetric_quantized
        qmethod: layer
        dtype: int8
        min:
        -   -17.04766845703125
        max:
        -   17.449504852294922
        scale:
        -   0.13528303258559282
        zero_point:
        -   -2
        ori_min:
        -   -17.04766845703125
        ori_max:
        -   17.449504852294922
    /model.22/Split_output_1:
        qtype: asymmetric_quantized
        qmethod: layer
        dtype: int8
        min:
        -   -7.0
        max:
        -   3.488656997680664
        scale:
        -   0.041131988226198686
        zero_point:
        -   42
        ori_min:
        -   -70.2824478149414
        ori_max:
        -   3.488656997680664
    /model.22/dfl/Reshape_output_0:
        qtype: asymmetric_quantized
        qmethod: layer
        dtype: int8
        min:
        -   -17.04766845703125
        max:
        -   17.449504852294922
        scale:
        -   0.13528303258559282
        zero_point:
        -   -2
        ori_min:
        -   -17.04766845703125
        ori_max:
        -   17.449504852294922
    /model.22/dfl/Transpose_output_0:
        qtype: asymmetric_quantized
        qmethod: layer
        dtype: int8
        min:
        -   -17.04766845703125
        max:
        -   17.449504852294922
        scale:
        -   0.13528303258559282
        zero_point:
        -   -2
        ori_min:
        -   -17.04766845703125
        ori_max:
        -   17.449504852294922
    /model.22/dfl/Softmax_output_0:
        qtype: asymmetric_quantized
        qmethod: layer
        dtype: int8
        min:
        -   0.0
        max:
        -   0.9915390610694885
        scale:
        -   0.003888388474782308
        zero_point:
        -   -128
        ori_min:
        -   9.519428058595448e-15
        ori_max:
        -   0.9915390610694885
    /model.22/dfl/Transpose_1_output_0:
        qtype: asymmetric_quantized
        qmethod: layer
        dtype: int8
        min:
        -   0.0
        max:
        -   0.9915390610694885
        scale:
        -   0.003888388474782308
        zero_point:
        -   -128
        ori_min:
        -   9.519428058595448e-15
        ori_max:
        -   0.9915390610694885
    /model.22/dfl/conv/Conv_output_0:
        qtype: asymmetric_quantized
        qmethod: layer
        dtype: int8
        min:
        -   0.0
        max:
        -   14.991144180297852
        scale:
        -   0.0587888007070504
        zero_point:
        -   -128
        ori_min:
        -   0.030492957681417465
        ori_max:
        -   14.991144180297852
    /model.22/dfl/Reshape_1_output_0_shape4_/model.22/Slice_2split_conv_/model.22/Slice_2split:
        qtype: asymmetric_quantized
        qmethod: layer
        dtype: int8
        min:
        -   0.0
        max:
        -   14.991144180297852
        scale:
        -   0.0587888007070504
        zero_point:
        -   -128
        ori_min:
        -   0.0
        ori_max:
        -   14.991144180297852
    /model.22/Slice_output_0_shape4_before_conv:
        qtype: asymmetric_quantized
        qmethod: layer
        dtype: int8
        min:
        -   0.0
        max:
        -   14.988798141479492
        scale:
        -   0.05877960055482154
        zero_point:
        -   -128
        ori_min:
        -   0.0
        ori_max:
        -   14.988798141479492
    /model.22/Slice_1_output_0:
        qtype: asymmetric_quantized
        qmethod: layer
        dtype: int8
        min:
        -   0.0
        max:
        -   14.991144180297852
        scale:
        -   0.0587888007070504
        zero_point:
        -   -128
        ori_min:
        -   0.04323052987456322
        ori_max:
        -   14.991144180297852
    /model.22/Slice_output_0:
        qtype: asymmetric_quantized
        qmethod: layer
        dtype: int8
        min:
        -   0.0
        max:
        -   14.988798141479492
        scale:
        -   0.05877960055482154
        zero_point:
        -   -128
        ori_min:
        -   0.030492957681417465
        ori_max:
        -   14.988798141479492
    /model.22/Sub_output_0:
        qtype: asymmetric_quantized
        qmethod: layer
        dtype: int8
        min:
        -   -5.625148773193359
        max:
        -   79.2888412475586
        scale:
        -   0.3329960392970665
        zero_point:
        -   -111
        ori_min:
        -   -5.625148773193359
        ori_max:
        -   79.2888412475586
    /model.22/Add_1_output_0:
        qtype: asymmetric_quantized
        qmethod: layer
        dtype: int8
        min:
        -   0.0
        max:
        -   81.7321548461914
        scale:
        -   0.32051825429878983
        zero_point:
        -   -128
        ori_min:
        -   0.6117768883705139
        ori_max:
        -   81.7321548461914
    /model.22/Sub_1_output_0:
        qtype: asymmetric_quantized
        qmethod: layer
        dtype: int8
        min:
        -   0.0
        max:
        -   29.96369171142578
        scale:
        -   0.11750467337814031
        zero_point:
        -   -128
        ori_min:
        -   0.4810142517089844
        ori_max:
        -   29.96369171142578
    /model.22/Add_2_output_0:
        qtype: asymmetric_quantized
        qmethod: layer
        dtype: int8
        min:
        -   0.0
        max:
        -   159.26809692382812
        scale:
        -   0.6245807722503064
        zero_point:
        -   -128
        ori_min:
        -   0.6229854226112366
        ori_max:
        -   159.26809692382812
    /model.22/Div_1_output_0_conv_/model.22/Concat_5:
        qtype: asymmetric_quantized
        qmethod: layer
        dtype: int8
        min:
        -   0.0
        max:
        -   79.63404846191406
        scale:
        -   0.3122903861251532
        zero_point:
        -   -128
        ori_min:
        -   0.0
        ori_max:
        -   79.63404846191406
    /model.22/Concat_5_output_0_shape4_/model.22/Mul_2_before_conv:
        qtype: asymmetric_quantized
        qmethod: layer
        dtype: int8
        min:
        -   0.0
        max:
        -   79.63404846191406
        scale:
        -   0.3122903861251532
        zero_point:
        -   -128
        ori_min:
        -   0.0
        ori_max:
        -   79.63404846191406
    /model.22/Concat_5_output_0_shape4_/model.22/Mul_2:
        qtype: asymmetric_quantized
        qmethod: layer
        dtype: int8
        min:
        -   0.0
        max:
        -   79.63404846191406
        scale:
        -   0.3122903861251532
        zero_point:
        -   -128
        ori_min:
        -   0.3114927113056183
        ori_max:
        -   79.63404846191406
    /model.22/Mul_2_output_0:
        qtype: asymmetric_quantized
        qmethod: layer
        dtype: int8
        min:
        -   0.0
        max:
        -   668.71875
        scale:
        -   2.6224264705882354
        zero_point:
        -   -128
        ori_min:
        -   2.95294189453125
        ori_max:
        -   668.71875
    /model.22/Concat_6_swap_concat_reshape_i0_out:
        qtype: asymmetric_quantized
        qmethod: layer
        dtype: int8
        min:
        -   0.0
        max:
        -   668.71875
        scale:
        -   2.6224264705882354
        zero_point:
        -   -128
        ori_min:
        -   2.95294189453125
        ori_max:
        -   668.71875
    /model.22/Sigmoid_output_0:
        qtype: asymmetric_quantized
        qmethod: layer
        dtype: int8
        min:
        -   0.0
        max:
        -   0.9703632593154907
        scale:
        -   0.003805346114962709
        zero_point:
        -   -128
        ori_min:
        -   0.0
        ori_max:
        -   0.9703632593154907
    /model.22/Concat_6_swap_concat_reshape_i1_out:
        qtype: asymmetric_quantized
        qmethod: layer
        dtype: int8
        min:
        -   0.0
        max:
        -   0.9703632593154907
        scale:
        -   0.003805346114962709
        zero_point:
        -   -128
        ori_min:
        -   0.0
        ori_max:
        -   0.9703632593154907
    output0_shape4:
        qtype: asymmetric_quantized
        qmethod: layer
        dtype: int8
        min:
        -   -3.6561529636383057
        max:
        -   668.71875
        scale:
        -   2.636764325347601
        zero_point:
        -   -127
        ori_min:
        -   -3.6561529636383057
        ori_max:
        -   668.71875
    output0:
        qtype: asymmetric_quantized
        qmethod: layer
        dtype: float32
        min:
        -   -3.6561529636383057
        max:
        -   668.71875
        scale: []
        zero_point: []
        ori_min:
        -   -3.6561529636383057
        ori_max:
        -   668.71875
    /model.22/Constant_12_output_0:
        qtype: symmetric_quantized
        qmethod: layer
        dtype: int32
        min:
        -   -79.5
        max:
        -   79.5
        scale:
        -   3.702007234096527e-08
        zero_point:
        -   0
        ori_min:
        -   0.5
        ori_max:
        -   79.5
    /model.22/Constant_13_output_0:
        qtype: symmetric_quantized
        qmethod: layer
        dtype: int32
        min:
        -   -79.5
        max:
        -   79.5
        scale:
        -   3.702007234096527e-08
        zero_point:
        -   0
        ori_min:
        -   0.5
        ori_max:
        -   79.5
    /model.22/Constant_15_output_0:
        qtype: asymmetric_quantized
        qmethod: layer
        dtype: int16
        min:
        -   0.0
        max:
        -   32.0
        scale:
        -   0.0004882887006942855
        zero_point:
        -   -32768
        ori_min:
        -   8.0
        ori_max:
        -   32.0
    images_int8:
        qtype: asymmetric_quantized
        qmethod: layer
        dtype: int8
        min:
        -   0.0
        max:
        -   1.0
        scale:
        -   0.00392156862745098
        zero_point:
        -   -128
        ori_min:
        -   0.0
        ori_max:
        -   1.0
    output0_int8:
        qtype: asymmetric_quantized
        qmethod: layer
        dtype: int8
        min:
        -   -3.6561529636383057
        max:
        -   668.71875
        scale:
        -   2.636764325347601
        zero_point:
        -   -127
        ori_min:
        -   -3.6561529636383057
        ori_max:
        -   668.71875
    output1_int8:
        qtype: asymmetric_quantized
        qmethod: layer
        dtype: int8
        min:
        -   -0.27846458554267883
        max:
        -   6.4211835861206055
        scale:
        -   0.026273130084954056
        zero_point:
        -   -117
        ori_min:
        -   -0.27846458554267883
        ori_max:
        -   6.4211835861206055
